[PAD]
[UNK]
[CLS]
[SEP]
[MASK]
?
a
c
d
f
g
i
k
l
m
n
o
p
r
s
t
v
x
y
z
##k
##a
##r
##d
##l
##o
##s
##i
##t
##n
##c
##y
##f
##z
##m
##g
##p
##x
##dy
##in
ok
##cc
##iin
ot
##ol
##aiin
##cdy
##ar
##al
##cy
##or
ol
##ccy
##ain
##co
##ccdy
sc
so
##sy
##ai
##ky
daiin
##scdy
##am
sol
ar
yk
or
##col
op
##daiin
al
##scy
aiin
##ody
scdy
yt
##air
okccy
##ty
okal
okaiin
##cody
zc
##dar
zcdy
dar
dal
##sdy
okccdy
okcdy
lk
okain
zo
olk
okcc
scy
##sc
##dal
##so
okar
sor
dy
otal
sco
oky
##ir
##sol
zcy
otar
otcdy
##sor
okc
##cco
oty
sk
sy
otaiin
##zcdy
okol
sar
zol
dain
sok
scol
scc
okcy
##dain
otccdy
otol
otccy
sccy
##zy
##zcy
saiin
sal
otain
dol
##sco
sot
sky
sdy
otc
##od
zccy
zco
dair
tol
##sccy
##ccs
of
ai
okcol
sck
zcol
ain
##os
##cccy
ty
od
zcc
##aly
otsy
otco
scky
st
##an
lscdy
##scol
zor
##kcy
dai
to
oksy
otcy
air
odaiin
pol
##zc
zy
okco
sody
otcc
am
##dam
##sar
scor
##kaiin
sty
##kccy
oc
sain
scody
dam
kol
zccdy
tar
##om
dor
oto
opscdy
occ
##kain
##saiin
##zo
yp
okor
##sd
oksdy
tor
##kar
##aiir
do
otor
##ccody
##scd
okcody
kar
zky
##sody
oko
sct
tcy
##sal
##cs
oly
zcky
dz
kaiin
ody
##py
##ccol
scar
##zdy
ykccy
kccy
##ksy
otcol
soky
soty
sccdy
##kal
lo
okscdy
otscdy
otam
okcccy
##kcdy
##as
okscy
ky
raiin
ys
##cor
scty
##iiin
olaiin
lol
taiin
##cd
otsdy
##tcy
os
zody
##kccdy
##zol
otcody
otcco
sos
olkccdy
tcdy
##scor
##zco
aiiin
po
##fy
okam
scd
sodaiin
zdy
##aiiin
skcy
kccdy
sl
otscy
scal
okcco
kcy
ls
sp
okair
ols
olkccy
kcdy
ds
oy
oaiin
zcody
##zccy
ots
otsol
lkaiin
okcor
lscy
olscdy
scs
##sod
tal
##ary
ykaiin
ko
kal
tccy
okaly
zcor
##ccd
ykar
opscy
ytaiin
lor
lzcdy
odar
sair
zar
kor
otody
lkccdy
dl
kain
oiin
##oiin
ops
sd
##ady
scdaiin
##aii
lkccy
olkain
dsy
scco
otair
olt
##cos
ykcc
scos
sccs
aiir
dzcdy
pscdy
zty
##ag
opsdy
okccol
##ss
olscy
oraiin
opal
daly
kc
kcc
lt
tscdy
##kc
##psy
lkar
##sos
oar
py
##iir
otsor
scdar
ykccdy
zcd
zcty
rol
oksol
aly
olkaiin
okccody
ct
odal
ps
tcol
##tccy
olor
scdal
##aim
ytccy
psc
sam
tco
yz
okody
okso
otso
##oly
opy
ytar
zck
olkcdy
daiir
oo
sdal
##tar
oldy
ary
opar
opsy
ytccdy
lkain
zot
##ccos
daii
dsol
dsor
kcol
lz
occdy
rar
ss
##kcc
olol
scp
sod
zcar
otaly
dscdy
kcody
odain
sa
zal
lkcdy
okccd
ks
kco
ksy
ksol
occy
par
tody
ysccy
zk
oksor
soiin
yty
##scs
okcal
sccky
da
pso
ts
tsy
##kam
##dl
##ory
aral
ytcdy
lkc
okccs
otcos
kz
kscdy
ksor
sdar
tc
tso
yo
##tsy
oks
olky
yksy
ytal
zcal
zok
zodaiin
skaiin
por
ro
tz
tscy
yky
olzcdy
##ail
dary
okcar
at
fol
ldy
tcc
yf
ysco
okzy
soc
ykcdy
ykal
opaiin
opsc
##daly
ksdy
lsc
##dor
##dair
olar
soly
ykcol
olkar
sary
daiiin
dsco
tsol
zaiin
##cccs
##oldy
##aldy
soksy
##zcd
ak
dc
dan
kscy
kair
lky
om
psco
ral
ror
tsor
tod
ydaiin
ysc
##ccor
scdain
sop
orain
opol
yto
daldy
zod
zoty
okccor
skal
aii
otccd
dscy
dso
lsdy
sf
yscy
##taiin
##tal
##zcol
okzcy
otccs
olo
olain
sodar
ykol
okaldy
zoky
scoky
okcsy
sckcy
otccody
kcco
##ly
oka
##cccdy
ykcody
ory
opsol
sotcy
zcos
okcos
otccos
lr
lp
lzcy
oain
oso
occs
oiiin
paiin
psol
rain
sdaiin
tain
tccdy
tcody
tsco
yso
zcco
##kol
scf
som
orol
ytsy
okcccdy
scok
okcdal
sokaiin
sccor
otcor
otcdar
zccky
kccol
oal
pz
pod
pscol
tsdy
yzcy
##aky
##sdar
##cky
okl
okzcdy
otcccy
olsy
olzcy
soy
sof
arar
ykc
ykcco
orar
ytol
ytor
lkscdy
olkcy
okcdar
skcdy
skar
skccy
sokcy
okcod
otccol
oscy
yscol
##ad
##tcdy
##zor
okan
oksd
ota
otod
##ols
olf
olal
arol
ykccody
opor
aldy
ytcody
zcs
olkcc
olkal
##scdar
okcd
otcd
ofscdy
sckal
stcy
doiin
dsccy
kody
kso
kcor
ll
laiin
lsccy
pal
tair
yd
yscdy
ysor
yzc
zd
zkcy
##scc
##to
##tam
##pscy
otzcdy
otzcy
soldy
aram
ykcy
ytc
ytcy
ytain
ytam
zcdaiin
sory
skdy
skain
okoldy
sokccy
otoldy
zccol
daim
todaiin
ock
ypscdy
sctcy
dzor
ap
akain
cty
cccs
dsc
dzcy
fscdy
kcccy
ly
lar
psor
ram
san
spy
yl
##zd
okod
araiin
alol
ytsor
##airy
zcdal
zcdain
lkl
zos
olkam
scod
scoty
scccy
##scos
sotaiin
sotar
sotsy
zcod
okoiin
akccy
akar
ck
dzo
oz
oor
occcy
osaiin
ry
sscy
sso
ysol
zccs
##kor
##ay
##tol
##cal
##cty
okos
otos
olsccy
##cod
sodal
arody
yko
oral
opo
alo
als
alam
ytscdy
ytscy
zckcy
lkcc
okccar
##scky
okary
soraiin
sokar
sccol
otoly
saly
sotal
otcs
otcal
otcdal
ofar
odair
occcs
yscco
pscdar
akaiin
cp
fy
fso
kos
kccody
lf
lzc
osol
occo
osar
rscdy
sdam
tzcdy
tos
tzo
tzol
yzcdy
zdar
##ksdy
##kcccy
##ldy
##oky
##sam
##scody
##tor
##tcody
##cf
okaiir
otsar
##arar
olp
olsdy
scam
soaiin
solscdy
aror
ykain
ykco
ykccol
oro
oram
opsor
opscol
alaiin
ytsdy
zokcy
zoksy
olkcccy
okccos
otaldy
scodaiin
sksy
sckaiin
sckar
zccty
aty
dcc
dsdy
dscol
kam
ksco
kzo
lsy
lscol
lscd
oa
ool
ocdy
oscdy
oair
pd
pco
pscy
psdy
psd
sr
tdy
ydy
yscor
yzccy
za
zain
ztcy
##kco
##kcol
##kair
##kcody
##kzy
##dg
##ls
##sccs
##tain
okom
okaiiin
otz
otzy
otsco
olz
oldaiin
sols
solkccdy
ykor
ykair
ykccs
ykcor
opsccy
alor
ytcol
ytody
ytccody
zct
daram
dals
dalal
scom
scop
sokal
sokain
sccody
sotol
sotccy
zcoky
otcodaiin
stcdy
stal
tom
##zcor
dzccy
dzcol
as
an
akal
dccy
dzy
dom
kod
lal
los
oi
osy
osor
pcy
pos
ssdy
tzcy
tsody
tcd
yzco
##ko
##kscdy
##oy
##odaiin
##cr
##car
##csy
##fsy
oksco
oksccy
oksar
oksody
otscd
otsod
oldar
sodain
sopy
##ais
solkaiin
ykscdy
yksdy
ykso
yksol
alkain
##tydy
zcaiin
zcdar
zckal
dalor
lkscy
lkcccy
zop
okccdar
scoc
scodal
scodain
okcscdy
okcsdy
syky
zoldy
sokol
scoldy
sals
otcsy
otcdaiin
ofal
ofsdy
okcoly
sckain
odor
zcck
zccor
otcod
otcodar
polaiin
occar
doiir
sdor
af
ccy
cccdy
dody
fo
far
kscol
ldar
ocol
pcdy
ssy
sscdy
sdain
tsccy
tscol
tscd
tcor
ydain
zam
zdal
##kcco
##oty
##sccdy
##tccdy
##ca
##cp
##fo
##far
oksod
##ccar
##ccky
otl
otsc
otsody
scpy
ykcccy
opair
opzcdy
alody
yts
ytco
ytsol
daral
dalol
dalam
lkal
lkcy
lkam
olkcol
okccsy
##scdal
otary
otarar
okciin
okcdaiin
otydy
skol
sokor
scckcy
otcar
##odam
zcoty
odl
odam
odaiiin
stdy
##zcs
otcccdy
sctcdy
sctar
osain
lsccdy
otsam
##aiim
sccos
daiidy
aky
akcdy
cccy
dag
kzco
kccd
ld
lsor
lsco
lsal
lzccy
ozcy
osccy
oiir
pair
pscd
pzco
rscy
rair
ssc
szcy
saiir
tcco
tccol
tzdy
tzco
yaiin
ysy
yzo
zkaiin
zkcdy
##da
##dccy
##dsy
##oo
##og
##sr
##cg
##fcy
##fsdy
##zal
##zccdy
##zody
##zcody
##paiin
okdy
oksc
oksal
##ccg
otdy
otscol
otsd
otzdy
olcc
olscol
olzccy
scdam
sosy
solal
solky
soldaiin
solkccy
aro
arod
ykam
ykscy
ykaly
opsal
alar
alal
alzcy
ytso
okalar
okalal
zcp
zckccy
zcksy
zckcdy
##dary
darol
lkco
zoy
zoiin
zokal
olkair
olkcco
olkccody
okccdal
dydy
dyky
otalal
scot
okcdain
sarol
saral
sokcdy
sokccdy
sccty
otolo
dols
doly
zcokcy
ofy
ofaiin
ofor
ail
aim
sckol
sckcdy
scksy
odccdy
stol
zory
todal
okcom
koldy
otoy
otodaiin
otodar
ysccdy
loly
##aiil
##aiii
oltcdy
ltcdy
ltccdy
cto
pscody
yzccdy
lzccdy
##kccor
tscody
tzod
opscdaiin
lpscdy
ag
ccs
dk
dt
dsaiin
das
fs
ka
kdy
ksc
kzcy
ksody
kscor
kccos
lso
lsol
lsar
lom
osc
osco
oaiir
psar
pzo
psody
rzcdy
rsccy
szcdy
tam
tzc
tscor
tsod
yol
zl
zs
zsy
zcccy
zan
##kaly
##kccol
##adar
##apy
##do
##dol
##dan
##odain
##is
##ciin
##cdaiin
##ckcy
##zar
okai
okzo
okzdy
okas
okag
okzd
##ccal
##ccsy
##ccdar
otan
otas
##alar
olr
old
oll
olam
olzy
oldam
olzdy
scr
soar
sosor
sozy
soiiin
sopsy
solaiin
solor
solscy
solody
solzcy
yksor
orscy
opa
opcy
opsar
opary
ald
alky
alscdy
alscy
alkaiin
alkccdy
ytair
ytcccy
ytaly
ytsody
ytoldy
okalol
okalor
darar
dalar
dalsy
dalscdy
dalsdy
dalzcdy
lkcol
lksdy
lkcco
lkcd
lkccd
zodain
zosaiin
olkscdy
okccod
okcccs
##scar
soror
sorain
dyt
scoar
scokcy
scokccy
okyd
okydy
okcdam
sko
skor
syty
okoly
saraiin
sarain
sokcol
soksol
sccdaiin
sccdar
scctccy
salal
sotor
sotain
sotcol
otcsdy
zcodaiin
dairy
dairal
toly
ofsy
ofscy
sckccy
odccy
otcodal
stain
toiin
toky
todar
polscdy
okcodal
otccdar
ocp
ocar
ocky
ockaiin
otoky
occdaiin
occody
ypscy
ypsdy
ypsol
sctain
dzol
dzco
dzccdy
##zcod
podaiin
scdol
spcdy
spcy
spsy
olsccdy
otsdal
sairy
opsccdy
opscody
ykccor
##kcsy
psdar
pscdal
kscody
psodaiin
kzcody
zokol
sfcy
ytcdar
psdair
ady
akccdy
akc
atccy
atar
cs
ccdy
cky
dccdy
dsd
dscor
fcy
fsol
fsccy
in
kai
kzcdy
kzy
ksccy
kaiiin
ksod
lain
ldaiin
og
oin
ozc
pody
psccy
pzc
pcor
pscor
psod
rary
saii
tai
tzy
tsar
tccody
tcos
yr
yy
yor
ydar
ydal
ysaiin
zt
zdaiin
zsdy
zkccy
ztal
##kan
##kcs
##ds
##osy
##sa
##sl
##sdaiin
##im
##tsol
##cdar
##cfy
##zs
##zod
##pscdy
##psdy
##xy
##xar
oksaiin
okscor
okail
##cca
##ccco
##ccty
##ccfy
otd
otai
otsccy
otsaiin
otsal
otail
##aral
olc
olso
olscd
sca
scsy
scaly
scpsy
sofy
daiiny
solol
solar
solkain
arain
ykcos
orair
orzy
orom
opam
opdaiin
opsco
opscd
alom
alkar
alkam
aiiny
ytcc
ytcco
ytcos
##airol
okalaiin
okalody
dalo
daldaiin
dalkar
lkcody
lkzcdy
lkccody
lkccol
lkcccdy
zom
zoaiin
zoar
olkol
olksy
olkccol
okccaiin
okccdain
scyky
##scg
##scal
##scdaiin
##soy
okaram
otalaiin
otalor
otalzcdy
scodar
otaral
otaram
##sory
okcs
okcaiin
skd
skam
skaly
sydy
syksy
soko
sokco
sokam
sokcody
scols
scoly
saldy
sotcdy
sotam
sotscy
otczy
otcdam
zcoy
zcom
zcodal
dairin
toldy
ofol
ofair
sckccdy
zccd
zccal
zccody
otcotcy
staiin
star
stor
stody
airal
##zcky
otccdaiin
otcccs
scory
oct
ockccy
koly
tarar
dory
otodal
occc
occcdy
occor
ypar
ypsy
okory
otory
kary
okoy
okodar
sctal
sctccy
sctsy
otcoly
lodaiin
loty
##cdair
otccod
okccodaiin
spar
dsccdy
oykccy
otscody
kaldy
oltccdy
ykccsy
kcsy
kcdar
kccar
ltal
##kcar
psdaiin
pscdaiin
tcod
tcodar
tcodal
zotol
daiim
raraiin
##kcccdy
scpar
sodsy
kcodar
kzar
tcdain
oksdar
tzor
tcccdy
tccdar
yscoky
socky
dciin
pscodar
dsoksy
kccod
pzcody
olfscdy
yzcor
olpscdy
akcy
adam
cl
co
cf
cco
ckcy
ccd
dm
ddy
dcy
dcco
dod
dos
dsal
dady
dsos
fsdy
fsco
kaly
ksar
ksaiin
kzdy
kas
kzol
kcos
ksos
lam
lody
ldal
lzy
lzo
lzdy
lzco
ocy
oco
ozcdy
oscol
ozo
osal
ozco
ooiin
osos
pc
psy
pdal
pzcdy
psal
pzol
ra
rsy
rzcy
rom
roiin
sz
ssol
ssor
szy
szo
sas
sady
sss
saim
ta
tccs
tan
tsd
tsal
tsos
tzcd
tscdar
xar
yc
yair
ydam
yscd
yzol
ydair
zp
zkar
ztsy
##kso
##kzcdy
##ksccy
##kos
##kccody
##kzdy
##kcd
##acy
##dody
##dzy
##dom
##lscdy
##ot
##of
##odar
##oaly
##okccy
##sg
##ssy
##sas
##il
##iy
##tdy
##tcol
##tod
##taly
##cady
##for
##zccs
##xor
okz
okscol
okzol
okzco
##ccaiin
##ccdaiin
##ccscy
##ccdal
##ccas
##cccg
otom
otaiir
otzol
otag
otsos
otscs
otscdar
##aiiny
##arol
##als
##orar
olccy
olccdy
oldal
olsor
olsco
olcccy
olaly
olsar
olom
olsaiin
olaiir
olscor
oloiin
olzcol
##ainy
scaiin
scscy
soccy
soccs
sosar
sosaiin
sodaly
##aisy
##aiksy
##kyd
daiindy
solo
solp
solzcdy
soldam
solkar
solkal
ara
arl
araly
arary
ykody
ykzy
yksody
ykcd
ykccd
ykoiin
ykccos
ors
orc
oror
orcccy
oran
orary
opdy
opod
opaiir
opsody
opscs
alr
all
alain
aldaiin
aldar
alos
aiinal
scdyt
yta
ytzy
ytcor
ytoiin
##airdy
##airar
okccyl
okalo
okalsy
okalam
okalsdy
zckaiin
zckain
zcpy
zctcy
zcpsy
##daro
daro
dardy
daraiin
darom
daldal
dalzdy
lkol
lkor
zoc
zodal
zozy
zokaiin
zokar
zotcy
olkc
olkor
olkscy
olkccs
olkcccdy
okccr
okccal
okccam
okccdaiin
okcccody
okcczy
okccom
##sca
##scsy
##scty
##daldy
##soky
##sodaiin
okardy
okaraiin
sorol
soral
dykaiin
dytydy
otald
otalar
otalsy
otalam
scokaiin
scokain
scotcy
scodor
okcam
okcscy
okcso
okczy
okciiin
okcdor
skccdy
skcody
sksol
skccody
sykar
okolar
okolsy
okolscy
okolzy
sarar
saram
zoly
zolf
sokscy
sokcco
scolkain
scck
scca
sccd
sccal
sccsy
sccdal
scckain
otolaiin
otolam
salol
salscdy
dolar
doldaiin
dolscy
##scod
soto
sotody
sotsdy
sotcccy
otciin
otcdain
otcdor
zcokccy
dairody
ofa
ofain
ofso
ofsol
ofscol
ofscd
ofsdar
ofscc
ais
okcoldy
sckcd
zcoldy
zcolol
tyd
odol
odaiir
zcct
zccar
zcctcy
otcot
sto
stccy
stsy
dail
toy
toor
tokar
airol
airam
airody
pold
poly
poldy
polal
polzy
polarar
okcodar
otccal
otccor
otccco
otccsy
scoraiin
ocor
ocdaiin
ockcy
taral
otoiin
otoaiin
otoar
otoscdy
occd
occol
occco
occsy
occcos
yps
okorar
torsy
doky
doiiin
karar
okoaiin
okodaiin
sctaiin
sctody
dzdy
##kaldy
lokccy
ysain
ysair
yscody
ysccs
##cdsy
poar
poal
sll
sls
okccodal
spdy
dscc
dsky
dscco
oyk
otss
otsccdy
otsdaiin
kodaiin
opsdar
sdair
sccodam
oltscy
ykcccdy
ykccar
ykccal
opalor
kcsdy
kccsy
odaly
scdaly
yzor
yzcco
oksom
opydaiin
sdaly
oparaiin
zotsy
daiil
lzcc
lzcody
raral
raram
ssky
##kccsy
scpscy
sodair
kcodaiin
zkdy
daky
psoty
psodain
tsdaiin
##dly
lkciin
lkcscdy
kzor
tcar
tcdaiin
tsot
tsodaiin
oksr
zoko
ataiin
tccor
yfscy
opscar
lscal
lscky
lscam
dscos
pscos
yscar
yscdar
ytodaiin
zodol
aiim
oloky
kccodal
okay
zccod
scfsy
oraro
olkccsy
##toy
ykodar
pcodar
scopcy
tzcdar
ad
ay
adar
apy
aksy
atcy
akam
ca
cd
cy
cscdy
ckaiin
cccd
ccos
cpsy
ccsy
dr
dd
dcdy
dky
dzc
dsar
dscd
dkcdy
diiin
dsod
dkc
dpsy
diir
dcccdy
dzcor
fa
fd
fc
fdy
faiin
fcol
fscy
fsc
fsor
fzcdy
fscol
fsd
fscd
fzol
fscc
fscody
iir
kd
kl
kccs
kan
kaiir
ksal
kcd
kaii
kss
kzcd
kzcs
la
lty
ldain
lod
lsaiin
lsody
lscor
laiiin
lzcd
on
oir
oos
osody
oscor
ozccy
occos
oscs
pa
pcc
pccy
pcol
pdaiin
pcody
paiir
rl
rody
rod
raly
raiir
rag
rss
rscs
rory
rsccs
rodam
rsr
rzccdy
siin
ssco
ssar
ssd
sscd
szol
sscor
sfy
saiiin
szccy
sail
szcol
sscos
tsc
tdain
taly
tcs
tccd
tccos
tail
taky
xol
yar
ysdy
ysar
yaiir
ysody
ysal
ysos
yscs
zscy
zaly
zkain
zksy
zkal
zfy
zkc
ztar
zccos
zdair
ztaiin
zaky
zldy
ztcody
zis
##kl
##ks
##ksol
##kzcy
##kod
##kcor
##ap
##adam
##ry
##raiin
##dc
##dady
##dag
##daim
##lal
##ok
##oin
##oor
##okar
##opy
##okcdy
##sx
##sdal
##saly
##san
##sairy
##iky
##iiiin
##iis
##ta
##tc
##tscdy
##tody
##tsdy
##tso
##tcco
##tcccy
##tccd
##tay
##ct
##ciiin
##cpsy
##ckam
##fol
##zx
##zcccy
##pdy
##pol
##par
##pal
##por
##pam
##psor
##psdar
okd
okiin
okscd
okady
oksos
okiir
okaim
okzor
okil
##ccl
##ccsc
##cccdar
otdar
otzc
otzo
otscor
otaiiin
otady
otaii
otaim
##olol
##olaiin
##olain
##alo
##alal
##alsy
##alscdy
##alam
##oraiin
##orain
olair
olty
oldain
olos
olzo
olccol
olaiiin
olaldy
olcccdy
olscdar
olpscy
oltydy
olscar
##coky
scg
scain
scan
scas
scfy
scad
soor
##aig
##aidy
##kydal
daiinody
sold
solair
solscol
solkcy
solsaiin
solksy
solkcdy
solols
solairy
ariin
aran
ykzcdy
ykos
ykan
yksd
ykscd
ykady
ykag
ykoly
orscdy
ordaiin
orso
oraly
oroly
opain
opccdy
opzcy
opzc
opsaiin
opsd
opzol
opaim
opail
opscos
alsy
alsdy
alzy
alod
alaly
aldam
alsar
aloly
aldair
alols
alkcccy
ytzcdy
ytod
ytsar
ytzo
ytccol
ytsos
ytory
ytcod
okald
okals
okalain
okalscdy
okalsal
zca
zcr
zcf
zcain
zcsy
zcam
zcsc
zcdam
zckar
zctsy
zcfsdy
zcdydy
daror
darscdy
darody
daraly
darail
daraldy
dalr
dalg
dalaiin
dalky
daldar
dalom
dalkcdy
dalary
okccdykcy
lko
lkair
lkzcy
lkaiir
lkccor
zokccy
zofy
olksdy
olkso
olkzcy
olkccor
olkcdaiin
okccso
okcccor
okccdaly
okcccsy
scykaiin
scykain
scykar
##scaiin
##dalsy
##sot
##soiin
okarol
okarar
okaral
sordy
sorsy
soraly
sorory
dyk
dyl
dys
dyscdy
dyty
dyksy
dykcdy
dykccdy
dytccy
dytsy
dytcdy
otals
otalody
otaldal
otalzy
scoy
scoal
scopy
scokal
scokcdy
scokc
scotccy
scokam
scocccs
scotol
zcyk
zcyr
zcyky
otardy
otaraldy
okcain
okcsol
okczcdy
okczcy
okcaly
okczdy
okcas
okcss
okcsdar
otyd
otyl
otys
otytam
skoldy
skccal
syp
sykcy
sykaiin
okolor
okolky
saro
saror
zoldaiin
zolkal
zolkccdy
sokody
soksor
soksccy
sokcccy
sokaly
sokan
sokcor
sokcd
sokzor
sokcca
scolt
scolor
scolscy
sccc
sccf
scccdy
sccdain
scckaiin
scccs
##dainy
otolor
otoldaiin
otolscy
otolsd
salo
salaiin
salar
salkar
salkccdy
saltar
dold
doldy
dolor
dolky
dolscdy
dolzcdy
doldam
dolkcdy
sots
sotso
sotzy
sotom
sotzol
sotols
otca
otcaiin
otcain
otcscdy
otcir
otcsal
otcas
otcdair
##odan
zcoal
zcokaiin
zcopy
zcokcdy
zcodaly
zcocky
zcotam
dairl
dairol
dairar
dairod
told
tolo
tols
tolscdy
tolzy
tolzcy
tolkain
ofsor
ofsar
ofzdy
ofscdaiin
aiy
aildy
okcolol
okcolaiin
sckdy
sckody
zcols
zcoly
zcolkain
zcoltcy
odr
odc
odsy
odcccy
odan
odory
zccp
zcckccy
zcckar
zcccs
zccksy
zcctccy
zcccky
otsyd
otcoy
otcodain
otcosaiin
otcosal
stl
stam
stod
daid
toaiin
toar
toccdy
tosy
toccs
tokain
tozco
tokol
airy
airsy
airod
polor
poldar
polsdy
polkccy
polscd
##zcal
zytsy
okcoy
okcosy
okcodain
okcosar
okcodaly
otccc
otccdal
amg
amom
scorol
ocscdy
ocdar
ocdain
ockar
ockcdy
ockcc
octal
ockol
octcody
ocdccy
saino
damo
kolscy
koldal
tarol
doroiin
otocc
otoccy
otoccs
occal
ypaiin
ypal
ypair
ypso
ypsor
ypsd
ypscd
ypaim
okoral
tory
toror
##kary
docc
doty
dodar
dokal
dotccy
otoraiin
otoram
karody
okok
okool
okoccy
okosy
okoscy
okodal
okocor
okoiiin
sctdy
sctam
dzody
dzcody
dzcco
dzccs
dzoly
odys
scary
otcoldy
loiin
lodar
loiiin
locccs
kydy
ysky
ysccody
ysccol
loldy
##cdol
ossy
##zoly
##zoldy
otccosy
otccodar
otccoaly
##zcos
poy
poiin
poscdy
poty
podal
pocco
poccar
scdor
scdscy
slol
slar
slal
lsl
lss
lsg
lsdaiin
lscody
lsdal
lscccy
spaiin
spal
spor
okairy
olsain
olsdaiin
olscody
olsccg
dsa
dssy
dsam
dscody
dsdar
dsccody
dsccos
oyt
oykcccy
otsdar
otssdy
okcory
lscyl
koky
kozc
kokaiin
kooiin
kaldaiin
kalsdy
##ccdcy
sairal
zaram
kory
korsy
dls
dly
dlar
dlzcdy
dlsd
opsdal
opsdain
opsccs
opsdam
opssd
sdol
sdcdy
dsydy
otairor
oltaiin
oltar
oltal
oltain
oltsy
oltzcdy
ykccdal
ykcczy
okccoly
opalal
opaldaiin
opalkaiin
kcal
kcscdy
kcam
kcccdy
kccor
kcccol
kccscy
kccdal
kccdain
ltccy
ltain
ltary
##kciin
##kcal
##kcscy
oaram
pyd
pydaiin
zcdol
roly
rolkccdy
alys
ctaiin
ctar
ctsy
ctscy
ctos
psdal
psccody
oloraiin
pscar
pscdain
tcodaiin
yzccody
otsoiin
otsodal
otsozy
opyd
opydy
zckdy
zckam
zckzcy
daiiral
ooky
ookccy
ookain
ooto
oparam
zotaiin
zotscy
zotccody
daiii
daiity
dsold
kcoly
lzor
lzcol
ssty
olols
ololdy
scpaiin
scpcy
scpscdy
sods
sodol
sodcy
sasy
saky
sasar
sakaiin
zalky
ksam
ksdal
ksccd
ksccor
kcod
zkol
zkscdy
zkcol
zkair
zkcody
zkcco
okcaldy
okcalar
day
daar
dasy
psodar
tsty
tsdar
##dlo
lkcal
lkcsy
lkcdal
lkcdain
kzd
kzcol
kzody
kzccol
tcscdy
tcdar
tcdam
tsoky
tsodar
yodaiin
yokccy
yokor
oksain
oksccdy
okscody
okszy
oksan
poraiin
porar
rodaiin
tzcody
tzccor
atol
atal
atam
tccdal
yfscdy
yfsdy
yfolaiin
yscod
sock
socf
socty
sockccy
opscty
opscdal
lscdar
lscdam
ykcols
dscoky
tsols
akcco
kairam
rorol
todol
yscain
yscdaiin
yscdal
yscksy
sopol
sopscdy
sopsdy
sopos
ytoy
aiidy
otccdo
dsog
dsodaiin
sfol
sfal
##zcoldy
okad
okasy
lraiin
lpsdy
osodaiin
osoty
psoly
psolky
tscos
tscodal
ysoty
zccodar
scfaiin
scfal
scokcol
scokcco
pzdar
podair
podaiir
sofcy
ykccod
orarol
olfscy
arolkccy
olkccar
otcdol
ksoy
lldy
palar
yzcal
##sccg
ockcody
ylkaiin
ckzy
ozccdy
ykoaiin
opoccy
aloccs
alsl
ofaram
cpar
fsodaiin
kosar
lfsy
lfscdy
lzcky
lzcty
occodaiin
osary
tosso
##cfom
ykcodar
oroiiin
opsordy
kscodaiin
pda
psdol
olzccdy
posaiin
tcdair
yzcod
scockcy
foar
tscdor
otscaiin
opairam
ytcodaiin
lsoraiin
lscod
pscdair
sscaiin
tccodaiin
##oooo
okscdam
arodl
ytsoy
dydydy
dkzcy
oscdain
pzodaiin
ollsy
skorsy
fsoldy
psodol
otaily
olkccoly
tsdor
zpcy
solpsd
